47
CB
E3
72
45
62
4B
73
49
CA
52
8F
D5
CB
4A
B0
7E
77
05
A2
5A
21
FE
26
4B
A8
F4
F3
C5
7E
AD
D3
28
6C
DC
0A
5E
13
2B
A1
07
45
77
89
74
6B
22
72
5D
05
B9
13
04
A3
F8
1C
78
FB
25
0C
67
38
63
EC
6B
3B
F9
59
25
54
35
69
73
94
75
25
9F
CB
3B
62
05
3F
72
69
44
86
5D
87
58
19
F6
0D
15
23
B7
04
6C
36
6D
3C
19
30
40
14
60
10
16
D9
30
EB
E6
CC
31
28
B1
5E
C9
EA
A9
6F
DA
84
44
FB
4A
78
3B
B7
0A
8A
68
9F
61
13
4D
31
49
38
9C
10
8F
3B
41
12
12
13
62
48
DE
52
62
53
82
1B
8B
19
2C
4B
8B
24
06
FB
30
A8
41
BA
08
03
68
E9
DC
F1
E1
B7
5A
48
0E
2B
FE
5B
4E
31
74
4E
1B
B4
E8
02
25
54
71
1C
D8
0F
D4
D2
1A
2B
58
22
78
10
4C
4A
2E
C4
0A
B5
1C
AA
82
F3
17
72
7C
14
10
48
36
3A
B5
3D
B5
D2
2D
57
53
47
D0
74
A6
9E
6E
28
7D
4D
46
69
0A
47
6A
74
70
BB
2E
48
71
1C
27
04
A5
F9
AA
39
34
61
09
4A
F6
5F
13
F7
43
79
74
65
5F
6E
E0
1E
E7
9F
83
46
06
2E
15
C0
38
66
7D
FF
41
29
41
42
6A
7F
76
2A
DF
0C
8D
B4
4B
19
34
3E
3F
C7
2A
10
48
74
3C
85
2C
C6
59
C2
04
90
B2
6A
86
9B
93
9F
6D
02
F8
3B
31
9E
41
0D
2D
3B
B6
27
C7
19
42
8D
44
34
6A
B9
02
5E
82
3D
3A
3F
6D
08
B0
34
A8
4F
62
24
50
F8
A6
61
3A
57
88
67
80
3E
73
36
0E
CA
C0
E1
C2
71
0A
37
34
4C
31
2E
7C
38
17
F4
02
AB
85
1C
39
D1
7C
EE
FB
CA
53
36
A9
DD
0A
AF
7F
0A
DB
33
D1
0F
40
24
47
B3
43
25
0A
FA
45
79
BA
6B
EF
35
33
BE
FE
1C
25
B2
7B
0C
56
2B
1E
19
6E
0E
66
4C
4C
C8
D8
4C
41
A7
09
15
78
81
77
63
B4
32
82
10
4B
E6
55
29
EE
59
51
5C
1E
4B
24
F1
09
09
25
5D
28
87
4C
0E
3C
10
36
25
03
94
95
77
0D
FF
23
70
0D
26
66
02
3C
3B
B4
14
3B
CC
A7
99
E6
AD
63
69
D0
E1
1C
C4
D3
61
5F
45
68
28
6A
77
FC
E6
05
3E
6E
EE
57
2E
60
B6
2F
3F
21
9F
06
8D
2F
2F
EA
8D
81
7B
0B
5C
8A
56
2C
76
3A
C0
14
E5
0E
73
F7
06
50
A0
4E
C4
30
DB
72
6A
39
53
3B
20
0B
64
1B
80
64
BD
06
37
30
1E
3D
76
62
D2
1E
2B
49
51
E2
9B
33
DA
62
59
1F
85
D7
84
E0
A9
A5
37
2D
33
53
25
9F
63
D9
7B
05
59
94
D3
08
21
3C
79
D7
77
0C
5E
26
97
24
1A
D6
BB
44
81
55
22
03
07
1D
39
52
5D
54
5D
3A
16
84
47
91
68
6B
73
33
1E
04
48
56
E9
5C
58
4B
28
03
6D
25
6D
66
5C
5B
F8
F0
8D
0C
20
58
63
0B
31
0B
B7
F8
1D
7B
08
63
49
F8
76
D9
41
5E
25
1A
53
2C
3D
C6
50
B0
0D
A8
67
28
57
6E
84
BF
66
07
64
0B
F5
5B
02
F6
9D
50
54
59
1C
30
63
D9
04
7C
45
10
A7
51
8F
1A
97
06
2C
4B
34
91
D0
36
9E
01
E0
BF
70
6C
51
32
95
4F
3E
2B
31
5C
69
A0
40
7B
EE
FF
48
26
77
61
40
0F
D4
31
51
6F
46
7E
12
41
02
72
58
0B
C8
0A
23
7E
35
14
A1
31
08
44
9C
05
6E
0C
53
8A
92
7B
11
0D
96
6B
73
7C
25
47
91
24
85
5C
09
1B
4C
26
66
1D
10
2D
66
01
A1
29
13
58
25
FC
5E
28
43
C1
2D
C8
C2
67
68
1C
79
31
8F
5B
77
DD
62
B2
CE
04
7C
72
D0
EE
56
25
63
1A
B3
82
BB
70
4F
68
4A
C8
3B
E3
C0
32
F0
08
69
79
5C
1D
E8
D5
33
97
6C
CF
3E
26
17
8D
16
08
16
6C
4A
1B
C4
10
6A
24
7B
43
B1
36
44
56
1E
98
4E
24
0D
03
C6
4C
0A
14
68
A6
69
0D
03
93
57
33
54
53
67
10
CC
51
2F
01
CA
87
76
6D
2A
96
91
31
B2
5F
68
CC
4D
7E
33
51
80
33
6E
DC
25
5D
09
8A
75
76
77
C0
26
73
8C
8A
1F
36
41
16
88
3D
31
56
DE
69
79
13
09
AA
6F
1C
DC
E1
54
30
10
C1
6F
0E
CD
3D
C9
52
EA
75
E6
69
62
4A
58
32
1C
DE
A2
46
3B
B8
E3
10
E1
73
94
DE
44
56
FA
5F
1E
17
59
6B
71
1F
2C
7D
3F
4F
25
7C
5B
30
BA
38
3E
61
8A
0E
6B
FD
44
7E
6B
4B
5B
17
47
D4
76
40
3C
5D
E7
AA
12
DC
37
B4
D7
3A
54
12
A0
4A
C7
3A
38
30
49
63
7B
F9
51
E1
15
58
31
63
A9
C0
40
66
65
61
8B
55
56
7C
A1
5E
3B
0F
0B
09
0F
D5
13
06
26
73
3A
3A
0F
73
A5
71
7A
4D
34
57
07
3D
69
9E
BC
59
40
23
1E
64
2A
6B
26
2D
7A
37
33
7C
28
99
3B
D7
52
9F
4E
01
2A
4A
1D
36
3D
1E
11
C7
4E
78
04
69
1B
D1
8C
FE
7A
3F
2B
02
64
D1
C6
AC
7C
59
23
76
5A
13
C1
87
74
EB
2E
24
7E
72
D9
5E
A5
0E
48
6A
63
A4
77
0C
61
1D
2A
11
CD
02
20
01
40
02
2E
38
E4
CF
EB
AF
5D
32
2E
BF
6F
FD
38
B6
4F
5E
6D
10
6B
9C
44
AE
22
1D
E5
23
65
6F
41
10
4A
6A
0A
76
9B
9B
0B
D8
6C
D9
05
62
73
67
2D
3F
01
E7
69
6D
99
B9
91
09
51
16
48
54
38
46
6E
14
51
E8
A9
BE
45
0C
6F
A2
BF
CB
1F
7A
09
7F
08
7D
29
DE
9C
55
86
20
CF
B1
31
3F
E3
A7
AE
CA
73
71
5D
66
17
1C
4A
F1
61
71
A0
43
0A
40
49
68
1D
60
E5
54
6C
AB
07
42
11
6C
26
48
86
67
31
2D
52
D8
C4
14
DC
26
44
0E
1F
6B
43
08
61
9B
C3
0A
4B
5E
2B
A0
1F
F6
A1
66
F0
6B
20
A6
57
A2
D9
CB
16
DB
75
0E
02
38
D9
AE
33
24
CF
04
16
98
2B
03
73
59
4B
84
3B
92
C8
61
0E
0F
1C
91
32
24
C5
1E
96
23
2F
C1
E3
4D
85
70
42
67
DD
59
55
6A
29
54
36
46
B1
29
43
22
48
F1
4B
51
7B
BE
41
0C
60
E5
46
89
65
B9
B5
9C
4A
08
35
22
7B
19
29
40
20
15
7E
15
85
E4
79
51
72
93
BC
34
93
17
20
4E
8B
58
E5
5C
28
95
BF
0B
1B
43
37
38
4A
92
78
50
72
B7
6D
B9
14
44
8D
7F
CA
5D
05
2B
77
0C
ED
0F
36
E6
69
B1
56
7F
09
10
79
2A
7B
B0
DB
2D
37
FA
30
51
1D
5D
5E
79
57
3B
47
41
4D
15
01
B3
57
8E
A1
36
D6
C7
F1
71
3B
17
0C
9C
53
FE
13
0F
11
49
62
28
9B
7C
3E
BC
0F
A6
43
63
46
19
72
03
12
4A
38
6D
7D
6C
21
33
03
19
93
6F
1B
08
3D
23
6E
5A
FB
A6
16
51
70
3D
D4
D3
77
66
D5
D8
D5
D4
22
A1
63
62
58
92
F7
48
AD
74
4E
05
0D
63
5C
B0
37
98
3D
65
10
76
8A
1B
45
C2
55
0A
07
2F
1E
DE
DF
48
41
06
61
49
15
5B
DE
98
84
1C
34
21
71
EE
83
63
2F
31
1E
D3
80
1B
0F
AE
38
43
A6
6F
B9
4A
6F
1D
9A
68
B4
34
33
41
51
92
2B
3E
0D
4C
30
5D
6D
7E
0F
24
25
29
78
2A
23
33
75
2B
3F
D5
A9
51
5F
0D
20
A6
75
05
C0
23
DF
F0
62
5C
1D
87
43
3E
13
F4
1E
78
34
47
76
67
65
5A
85
71
03
44
15
5C
3F
E3
14
5C
08
31
BF
B0
24
66
EA
42
F5
1B
2A
32
42
79
0E
F5
62
AC
65
4F
4E
63
52
56
55
83
9C
9C
4C
1A
02
92
6C
7A
68
3E
7B
47
E9
F0
6A
1D
90
08
97
97
0E
67
7D
A7
5B
7E
59
DC
76
57
71
04
69
7C
4C
61
26
7A
DB
42
D7
99
41
31
9D
1B
52
A9
33
31
74
0D
2F
70
72
3B
5E
4F
B9
4B
6D
AE
58
D3
2D
0D
DF
F1
13
B0
6D
86
29
65
41
90
15
B0
0C
2A
41
5A
56
16
9F
B6
10
79
6E
35
56
E7
EB
09
73
69
59
B2
35
B5
FB
44
CC
4C
3A
BE
FF
1E
E3
E1
D8
0D
88
36
6A
47
70
07
3F
CB
21
07
46
54
39
FA
23
65
21
12
3F
B3
3D
12
0B
E4
F6
D2
8D
23
B4
42
4B
69
3C
A8
79
05
12
AD
5A
DF
E4
5C
17
11
07
69
AC
36
5F
BF
0D
F6
7A
3F
42
8B
30
C6
38
1B
41
DF
99
41
CE
F8
9B
4D
6A
6F
3F
36
7A
2C
32
24
D9
3A
64
3A
29
5F
15
2B
7C
54
54
4F
8E
40
49
14
20
38
E2
05
42
E9
08
24
3C
7D
E5
45
7E
44
5A
DD
7B
3F
04
38
56
0F
DA
0D
98
6A
EA
5B
B8
5E
82
3E
24
0B
FE
35
DF
B6
AB
C8
16
A6
8D
73
E9
F4
E9
7B
4D
24
09
7F
A8
6D
6E
1B
B7
A4
2D
34
0F
A0
17
CC
65
52
38
7D
64
4E
3D
DD
31
B2
E3
AA
32
08
9F
36
F0
98
1F
C7
4F
BD
18
02
23
6C
5E
5A
5A
45
32
BA
57
13
BC
39
BB
73
7C
D7
3D
3F
A5
C7
42
2A
3B
32
48
50
72
74
5F
59
1E
6E
FE
78
BA
43
2F
4B
C9
34
59
C0
7C
0A
F3
45
0C
30
BA
AB
2D
5F
6B
67
59
1E
92
53
21
5F
69
17
52
DF
5B
89
22
BE
15
FA
67
09
48
1C
46
4A
2C
4D
13
11
3D
09
55
39
08
10
A2
7D
03
D1
57
E8
48
12
04
6B
56
87
39
C8
0F
05
53
1F
16
2E
50
EA
68
49
84
46
DB
A3
9B
88
4C
F1
F2
4C
48
33
57
EB
BB
70
8D
41
E0
C1
0E
AC
2D
0D
12
26
2E
79
3D
67
16
4C
60
6B
93
55
7C
54
78
82
33
C1
09
EF
83
45
4A
5C
B1
4C
76
1A
BD
0C
CA
3D
5A
90
76
1D
76
32
78
62
B7
DF
5E
10
47
D5
EA
09
F5
8C
3E
1E
A3
52
73
3F
61
1F
0A
0A
E2
1B
10
28
16
91
4F
D4
AA
7A
4F
4C
69
60
9F
35
12
2F
5A
34
F7
65
46
85
55
80
A9
4A
7D
DE
09
6D
5A
42
0A
10
4A
ED
22
3A
11
2D
43
09
F1
75
5D
17
31
4F
4F
40
4B
14
F7
62
77
6F
67
AE
0F
E7
54
99
31
B8
A6
7A
4B
1F
E9
8B
29
80
85
16
1C
D9
69
E1
04
05
62
77
6F
11
77
16
71
08
3A
5A
4D
C9
D2
EF
61
41
F5
B6
25
7D
53
73
D9
88
41
D4
77
76
2A
1B
AB
11
17
1C
0C
BE
1A
BD
6C
67
3A
6A
0E
1D
1E
05
1B
6B
44
B8
41
17
7B
07
24
1E
92
96
8A
64
4A
1D
7C
94
3A
81
97
E5
C5
28
20
CF
32
03
35
3A
C8
11
E3
69
AA
FB
EE
2A
80
1D
F9
47
29
06
EE
9C
A4
41
A6
CD
39
C2
D7
53
2B
1D
03
7A
08
11
FD
5E
CE
5C
B6
54
34
99
06
F8
6C
DE
D8
7C
6F
2A
5A
06
B5
24
38
10
4E
0A
82
89
32
0D
D9
0E
5B
57
92
35
16
B4
74
CD
19
95
8D
36
94
7C
79
64
5F
2F
4C
C3
73
15
10
34
CA
37
F4
14
85
5F
E4
75
25
07
56
70
93
82
9C
2D
3D
C1
35
07
C1
0E
5B
87
2D
4A
32
47
91
57
10
12
18
7E
6C
6E
0B
06
57
C2
4F
2D
DA
63
07
06
46
2C
27
7D
21
26
6D
51
6A
7E
54
EB
20
3F
86
B3
64
26
31
34
55
79
27
54
76
67
A4
2E
3A
05
5D
A6
83
92
79
44
67
69
52
0A
40
72
0C
BB
75
6B
60
54
DF
33
32
65
86
EF
59
EE
A8
4B
DE
A6
83
53
23
69
A2
62
1E
63
12
4E
1D
5A
CF
2B
30
38
69
73
56
69
6C
5A
CF
F3
74
2F
4F
2E
BB
33
EA
4D
4F
2C
4B
C2
33
B8
53
23
74
02
30
39
0D
53
47
04
AF
AF
D4
02
C5
03
53
F7
42
31
B5
4D
2B
06
4E
0B
68
A8
72
8D
57
40
1A
0A
75
45
4A
35
F1
42
74
47
78
38
6E
17
18
E3
18
3E
83
4F
16
54
28
5B
28
5F
22
88
3A
61
D2
17
B2
11
08
2D
7D
34
51
33
8F
69
7A
1C
3E
07
41
26
14
84
09
84
5A
A4
38
8D
0D
89
0C
62
10
F0
67
80
FC
23
24
20
0A
78
E6
7C
7D
2C
85
1E
43
79
D4
25
C1
C4
04
5E
5D
7A
2B
3E
13
3D
3D
64
88
C5
07
C0
93
6C
E5
35
13
AA
73
0B
18
A9
62
1A
39
B1
16
86
B2
35
E6
A2
02
16
22
4D
08
02
3D
72
DB
68
9C
2E
BD
59
0A
AA
83
2F
71
79
E0
39
71
CF
12
11
5D
F0
57
27
36
19
50
4F
DF
57
BF
5C
44
8C
93
56
63
44
71
A6
29
28
6B
5C
74
16
3B
D2
07
F2
55
0E
7B
0B
37
39
86
6E
12
62
63
33
AD
48
DB
CB
77
2A
7D
58
D2
08
BC
6C
EA
1E
23
03
55
AA
67
68
08
34
2E
03
66
E7
D4
9A
18
AF
6B
48
D0
54
4F
3F
D4
3D
5D
72
61
59
37
A9
5A
71
3C
E8
9A
5A
40
E9
49
65
29
39
17
40
C7
03
52
E0
51
03
93
4C
5F
0B
28
56
64
B1
57
EF
1E
18
65
65
23
07
CB
36
97
5C
68
63
65
27
F2
3B
49
5B
7C
4C
75
49
55
61
51
7F
05
B6
1D
6E
36
75
2F
49
17
76
B6
7C
5C
6E
4B
65
FE
3F
66
81
03
03
3A
CF
20
BC
5E
19
73
C6
E8
4C
A5
07
6E
51
F8
1A
44
86
2A
45
C2
6F
77
47
44
D5
5D
F3
51
9C
D4
0E
A6
40
5C
54
3F
12
81
A3
74
75
1D
BD
A7
5D
48
22
D2
07
A7
52
43
5C
73
B9
32
39
71
05
22
32
0F
8A
97
18
6C
79
3F
17
2D
4E
12
EF
B7
DB
E4
39
60
10
62
61
16
50
28
6C
8A
67
F4
08
7A
25
B8
62
1D
38
2F
2A
45
D0
4B
13
24
13
3A
77
28
07
4B
DD
5C
36
68
D5
B1
CD
CE
2B
D7
1A
67
A9
80
11
38
75
5E
54
76
8A
C3
33
EB
20
71
B4
15
05
A5
29
61
BD
36
1F
D2
0C
10
66
EB
37
10
3B
C6
9A
2D
40
6D
48
75
8E
1B
A0
BF
68
55
D7
96
3C
0F
9D
5B
2B
09
3B
A9
46
F2
F5
63
CA
15
15
B1
6A
51
43
C0
76
B5
9A
2D
88
7E
0D
BF
4B
73
7E
48
73
75
17
75
9C
17
0B
09
47
E3
6A
72
07
FD
B4
77
4A
40
E8
C9
D7
C8
22
37
10
91
EE
55
19
4D
FC
55
6B
2C
7E
0D
CC
55
3C
47
99
68
09
4D
B8
22
88
26
EB
0F
0C
97
77
D1
79
1F
C3
2C
C8
17
0A
74
57
23
23
2E
52
3B
4E
38
24
43
7B
0D
69
B2
2B
FC
9B
96
FD
5B
4F
49
71
FD
72
6D
02
56
48
6F
31
7D
05
61
42
4A
0B
62
04
2E
15
75
66
C6
86
7A
4C
4D
66
64
10
F8
60
51
2C
04
D0
F5
F8
04
F2
A1
44
43
17
15
57
7A
18
75
5E
01
C1
10
34
D1
CA
B9
A3
DD
13
CE
71
53
E9
01
40
08
C9
0E
3D
3D
82
8E
55
63
23
50
76
9E
3F
0B
20
FF
20
1B
EE
2A
D7
47
79
03
41
3E
59
68
C4
9D
F2
E8
43
7E
13
73
8D
1F
40
0F
5A
28
42
3D
4A
E8
11
DC
7F
21
6A
0D
D5
AF
41
64
78
74
DB
C4
9C
F4
BD
E4
74
E8
03
A3
6D
AC
5D
E3
D0
78
F4
2C
11
37
71
AC
7E
89
22
D5
D6
14
0D
1A
1A
16
6E
24
4F
D9
BF
0A
5A
53
F0
3D
54
0D
17
B1
EE
5A
17
49
7D
1A
7D
4E
32
2F
3A
06
D6
21
BA
1E
F0
49
26
50
59
38
5C
9A
09
22
49
EA
53
3B
B8
2E
49
7C
7B
3E
14
16
54
4A
23
75
78
1F
1E
91
46
E5
3B
B2
87
EA
45
3E
67
E2
03
BE
5D
5C
6F
64
52
23
24
8C
F1
25
79
0D
75
5B
6B
26
13
6C
25
69
2A
4A
37
A8
19
80
24
4D
D9
1A
68
F9
B4
1F
D3
8A
55
50
16
23
74
33
39
37
C5
08
8F
44
6A
4F
63
B3
69
3D
AE
7F
41
58
05
49
05
82
52
77
7E
A3
09
23
2A
4C
9D
0F
88
C1
48
C0
17
0E
3A
57
D0
21
51
A0
3D
4D
24
2C
3D
03
6C
4F
C8
8B
6C
98
F5
01
86
3A
75
86
57
EE
46
EB
0E
78
2E
13
EF
5D
7A
43
5D
29
43
7D
6B
B5
07
6E
09
42
60
12
FC
68
54
97
71
6E
27
D2
BD
36
74
F1
A4
9E
05
AC
31
11
81
FA
C8
B9
25
9D
77
08
8D
F3
C4
EA
A9
6F
09
5B
9C
27
73
51
25
19
7C
6A
70
0D
17
40
7B
54
E9
23
54
8E
24
CF
DB
27
72
7E
58
09
10
4B
31
26
09
98
27
83
BA
0E
61
2E
5A
55
64
DF
0D
08
65
07
43
54
20
3C
13
31
10
C5
B9
16
ED
78
F7
05
10
18
CD
BA
8A
B1
CD
02
88
53
78
0A
6A
F6
1B
89
1E
65
FA
51
C7
80
68
97
07
1F
5F
6E
5B
9B
30
5D
D6
A5
76
82
69
3A
8F
84
4E
2D
28
22
85
72
A1
43
0E
B8
27
4E
44
67
EA
E5
06
14
7B
15
E4
E0
4C
68
23
66
D2
4E
BD
05
49
DB
92
7F
06
3E
04
0B
7B
BC
D1
C9
56
F6
EA
3A
09
E8
57
A2
EC
1D
61
4B
FF
1B
BC
73
D0
37
70
4A
CD
4C
2B
6B
44
B2
93
9D
0F
7D
44
AB
4F
EA
3B
40
FD
05
6A
63
5B
E7
6C
0B
A1
32
28
46
DF
18
15
1D
54
55
6D
39
51
36
CA
6E
44
25
B4
D6
12
12
AD
23
14
58
2B
4B
89
4D
2D
A0
D6
45
6E
02
0C
2A
F2
AE
05
14
71
62
5A
67
64
64
38
12
5F
69
43
FB
4A
79
45
3A
5F
89
1B
71
BD
BD
BA
D8
40
99
7B
04
3A
20
57
5E
27
4E
80
07
14
33
29
5C
16
0B
62
0C
2F
43
2F
4E
0D
5E
23
EF
DD
75
16
93
B6
61
57
F6
AE
22
B6
48
0B
21
78
5F
F5
A7
67
0A
0E
4A
80
83
24
5B
08
FA
AE
09
2A
56
55
CD
41
45
35
0C
5F
2A
0B
E9
14
06
F4
2A
11
8F
F2
4E
D5
92
EC
D2
E4
7F
06
F3
4A
16
7D
EE
38
12
4C
C2
2F
06
75
CC
19
24
81
1F
2A
20
84
5A
12
1E
2E
E1
25
4B
38
63
07
32
0E
AC
3F
65
1E
B8
55
31
38
64
18
40
03
39
23
D0
3E
16
54
25
AC
59
EB
AA
51
6B
1C
57
43
E0
61
76
5D
29
55
1A
C7
99
97
4E
2A
A7
87
1C
CA
60
B7
85
4C
34
98
70
19
1C
81
41
92
21
CC
E7
BF
73
A7
75
14
6E
DB
5C
72
63
1D
58
62
4A
7B
05
39
E7
4A
09
17
71
FB
0D
29
A5
0D
64
52
68
E6
72
0C
66
77
EB
5B
4D
70
22
0D
4E
2B
0F
A5
2D
10
EA
DD
49
51
2C
CE
D8
F6
B7
19
64
65
21
3B
E1
C9
65
B0
4D
76
BC
56
E6
7D
83
23
33
3B
11
1E
8B
60
09
29
E9
03
31
CA
F0
62
65
9A
2B
86
0C
62
41
30
16
CE
0B
6B
4C
01
02
52
34
07
D5
77
49
6D
CF
66
67
DA
7D
EE
03
07
23
3B
EE
0A
77
5C
AC
61
5D
28
A9
DF
81
49
31
38
67
B1
BA
3D
F7
75
A6
0E
A9
A5
90
76
69
FA
21
75
36
33
23
22
78
9B
25
86
44
16
0D
C9
B4
D6
10
0C
34
BD
70
C5
28
73
6D
22
0B
5C
9B
E0
29
56
67
20
1E
65
D9
C5
AB
62
40
1C
A0
90
71
74
26
11
4D
92
13
39
0A
25
29
1D
59
11
13
58
E3
3A
70
AF
1D
13
13
06
3D
7B
F1
1E
F7
20
E2
A5
62
5A
14
12
23
54
76
53
BC
4F
3C
22
69
05
5E
F9
46
2C
83
01
60
4C
45
15
10
0F
E9
19
1F
42
B1
32
4C
10
F5
5D
38
55
72
F0
50
18
DA
28
CF
6A
2B
40
72
50
2C
07
4F
BD
0C
5E
29
36
44
36
6B
57
26
B3
16
6E
2D
2A
8D
20
26
45
42
5A
FF
77
24
99
F7
DF
6A
10
4F
69
BF
0F
1A
41
75
B3
40
2E
0A
08
4E
45
63
AB
0F
6D
3F
02
A2
04
21
06
66
25
A2
36
A4
EE
4A
DE
7B
5B
9C
81
3A
B6
23
C8
CB
6C
75
CD
4B
5D
3B
B2
37
15
2B
5D
76
3D
66
C3
09
D2
3C
81
DE
15
94
18
0F
45
09
30
1C
6C
51
64
60
37
47
77
3D
6C
22
10
E1
0D
E7
2B
5B
F3
33
F9
3B
11
27
62
62
F8
36
2A
91
59
19
53
6D
45
4B
73
09
3F
74
A2
E6
6D
40
22
B1
3A
62
24
11
A3
C1
BC
49
77
BC
AD
FE
2D
39
F7
1F
D2
72
0A
63
58
56
04
27
CB
EA
D9
5E
ED
68
40
31
78
54
B5
EF
24
81
6E
E2
82
B9
87
3C
46
BB
8F
6D
B8
BE
53
2E
DF
A4
60
AD
BD
25
47
22
51
C9
2C
BF
78
7A
1E
E3
50
44
0D
11
37
E8
AB
6E
FA
5E
37
6A
EB
53
01
AB
3D
9A
6A
25
36
98
B2
77
05
38
59
A9
0F
49
80
47
0E
FF
C2
C8
0D
74
7A
91
12
7C
C9
08
9B
FD
77
2D
85
1A
BC
7D
D5
C2
1D
7D
14
CA
CA
29
1E
77
25
50
78
0A
6E
35
38
7E
D8
53
78
9F
70
02
07
68
A3
39
7C
47
2E
3B
13
64
94
27
44
51
65
5D
63
6D
7A
07
20
C3
23
6B
BB
26
4F
15
9C
48
09
7A
E8
41
26
3A
95
59
B4
5F
AD
BE
A3
F2
B8
EF
52
B7
5F
30
83
4F
39
97
27
FC
5C
77
0D
70
15
22
67
69
D0
3A
6A
35
04
0C
96
9B
D6
85
7B
9F
2D
75
4A
08
4D
86
3D
5E
58
21
26
62
FC
29
55
11
51
2F
49
16
32
FF
0C
2E
8C
7E
33
4C
65
5A
4E
54
59
03
84
01
72
76
75
40
17
3A
A0
24
24
74
61
6B
1A
CC
54
71
F1
99
6A
08
07
21
83
5C
20
4E
F3
E6
F7
17
02
E9
09
77
4D
FC
7C
63
42
06
0B
4B
34
1D
4D
B9
01
3C
85
76
47
21
56
12
60
67
73
13
66
51
13
86
F5
E1
38
48
22
99
FE
2D
79
8C
CA
E7
99
66
11
9C
98
94
2A
40
38
64
F8
64
65
02
46
57
C3
A9
57
51
8F
F7
EB
06
1D
0F
47
49
28
E7
10
CE
76
DE
ED
2F
53
91
39
DB
A1
72
93
20
76
61
FC
D0
43
B3
1F
0C
6A
94
4D
7B
F3
2B
2C
AB
07
02
94
46
C0
6A
DE
30
11
F8
D2
F2
D3
41
9E
E2
30
5C
DB
87
E6
3C
5B
6E
2C
AC
CA
30
88
EA
20
1D
E8
01
39
74
29
74
09
31
0B
34
59
40
2C
3A
13
68
0B
60
AD
43
6B
2A
50
44
69
33
76
37
31
36
21
93
2B
C7
4C
7B
9A
E9
EB
73
1C
B4
5A
33
22
F3
AA
3D
3F
06
F6
8C
FC
61
27
3E
0B
CC
24
D2
13
10
FE
63
91
69
53
DC
C3
DA
17
3D
B4
47
E2
4B
22
E1
9A
84
2F
E3
B3
7B
77
04
3D
54
28
71
69
22
68
43
9D
6B
7F
64
49
51
B9
56
26
70
6C
81
AE
65
24
A1
3B
91
23
6A
47
59
20
E1
5B
51
5B
37
4C
4F
DD
19
4C
15
0A
19
23
59
6B
4F
54
E5
49
64
E5
7E
C8
73
87
6A
AF
5A
1A
5D
68
68
5D
5A
3B
52
5E
4A
56
81
06
39
59
24
2A
3E
D4
41
4F
8C
25
18
15
0E
4A
08
33
43
74
95
29
7B
D6
4E
40
1C
AC
0D
22
DD
41
0F
BB
9A
79
78
59
57
70
4B
50
61
67
83
CC
0B
6E
AA
4A
98
16
B2
77
19
66
25
EC
32
39
B0
E7
20
0C
90
E9
64
04
54
2E
A2
2F
BA
28
78
44
E7
3A
33
A1
55
6E
9A
4A
89
10
4C
2A
3F
1B
CD
AF
51
51
4F
70
0A
25
BB
66
23
1A
29
36
CD
7F
71
72
72
FB
08
72
C0
7C
34
7E
DD
34
3A
71
BD
97
D6
24
39
58
5E
0E
80
50
11
32
5F
15
41
FC
DA
08
9B
3E
FD
35
D1
43
83
58
9D
46
87
4F
64
6D
3B
20
36
2D
29
33
CE
55
56
BA
D4
D5
E0
4F
0E
6C
C6
39
83
16
8E
7A
E9
D0
D8
4F
14
D8
0B
D6
7C
F9
43
AC
59
BA
BF
49
6C
B5
2A
7A
40
C0
64
1D
4B
A7
3C
62
1C
09
3E
4E
16
23
FA
73
1F
F2
1A
A0
17
03
8B
B0
6F
AF
49
18
05
1B
6A
86
AD
67
40
30
5C
23
84
4B
76
F5
21
87
17
46
04
AC
F7
78
A4
2B
33
C2
6B
16
01
EF
12
DC
6E
E9
EA
6A
47
2F
47
18
26
6D
2E
8B
41
20
B4
40
4E
C4
9C
11
FF
14
77
24
50
22
F1
AA
17
B6
EF
1A
24
54
2F
01
D6
6B
16
30
25
68
20
8C
0D
FD
2C
84
2F
F6
4A
FA
39
23
42
15
D4
73
4C
F0
14
9B
14
12
61
C4
82
D9
BF
A1
3D
03
30
65
51
18
47
5D
3B
58
FE
65
C7
0E
1E
13
EE
84
E3
E4
85
EB
91
2B
39
7B
53
48
D5
AF
0F
6F
AB
79
AA
87
D8
2E
4B
09
9A
18
C8
79
87
DD
C2
0C
B8
31
8B
7B
6C
50
6E
6C
27
FE
4F
67
C8
DA
37
0F
26
2C
73
5E
0D
7D
B5
14
C0
12
41
2C
6C
63
B5
C6
EE
14
4A
AB
A0
3A
06
70
B5
1C
5B
7C
6C
D1
2C
0F
58
53
2C
A9
B3
D8
92
7E
C3
3D
27
FE
4B
51
49
75
A0
29
45
8B
DF
14
2C
56
DE
43
72
9E
49
34
7A
0E
95
0A
D2
0E
31
5D
9C
07
1C
3A
62
AA
15
68
3F
71
28
1E
B1
A7
E9
99
2E
C8
E3
B9
8D
65
F9
1F
0D
66
7A
51
2A
11
90
6F
61
92
48
2E
96
19
96
10
BC
66
9C
3E
80
66
D8
37
1A
19
11
64
0D
04
2C
26
39
B2
6B
AE
24
94
63
E9
91
E9
2A
3B
5B
72
6E
0E
2E
B5
13
49
4E
EE
11
70
B6
3E
EB
4D
01
ED
69
1D
35
E9
07
2F
6A
77
CE
33
7D
07
10
33
EA
7E
57
5B
74
4F
9C
4A
82
23
7D
91
71
AE
C5
F6
1F
16
31
5F
55
D9
4D
67
17
02
36
66
A8
9B
AF
38
38
F3
C8
35
36
EF
1F
F4
28
AE
1B
7A
0C
4C
29
94
6D
79
69
64
E2
BB
7F
6F
6B
28
72
79
55
95
BF
35
56
65
BB
43
0F
B5
44
3A
B8
47
3B
A7
89
0E
58
5B
1C
68
4A
3C
0E
1E
3E
11
8A
DD
07
C5
AE
C5
10
12
17
CB
5C
86
03
59
83
3C
02
F5
70
BF
EC
C7
52
6D
1E
22
9B
F6
72
3E
06
EA
38
B1
36
1C
9B
25
4D
32
B4
0C
1C
C2
8F
48
B9
4C
18
08
21
DB
29
24
43
1D
D1
F6
5E
B2
1B
E8
12
18
39
54
13
5A
55
03
4C
48
B0
08
09
D6
9E
6B
1E
5B
1A
73
EF
90
43
FF
FD
87
5B
4F
72
72
CE
DD
4C
23
DF
E9
03
3B
46
68
61
87
09
46
C6
8E
49
5F
04
06
52
18
38
08
09
45
10
D4
20
43
98
3A
55
D8
89
54
09
10
50
EF
01
1F
50
E9
3B
05
12
4F
27
8F
2E
86
1C
7E
6F
04
60
75
1A
46
5C
A9
66
3B
02
16
B5
2E
6F
63
2F
41
3C
71
1E
C2
47
E9
B4
B1
2F
64
07
25
A5
0A
1A
18
19
73
CA
A8
39
20
40
0B
5B
07
1C
F5
4A
67
17
51
29
CA
4C
32
A9
72
47
AC
F3
9F
79
04
85
2B
08
2C
72
D0
D0
7E
8C
72
35
34
96
55
23
69
C3
FE
E9
D0
76
7E
CF
1A
0C
2A
58
09
19
2F
7C
5C
48
3D
53
20
45
8A
06
26
4F
08
6B
0E
6C
07
47
18
54
47
C4
29
0D
96
4B
0D
76
23
34
35
7B
1B
46
A6
0F
5B
14
75
0D
10
7B
26
5E
29
25
26
2E
1C
1B
56
4E
2F
94
A0
87
B3
13
78
8C
BF
20
24
89
1B
73
2C
29
4C
1E
DE
73
59
6E
19
2E
D4
10
C0
19
0C
68
27
44
28
A3
CD
E2
D5
DC
A0
20
5B
05
CC
42
43
2D
DD
53
0E
EC
2F
0C
46
48
62
17
BE
B2
F1
A0
58
CA
D1
50
1E
0A
21
5E
4A
A3
AA
65
4F
6A
2A
D6
01
09
A9
B5
21
43
88
17
69
38
45
3B
F3
51
45
4C
E4
59
36
02
54
1D
77
3F
03
09
CD
54
2D
86
F5
05
0C
D8
2A
26
FB
0F
C1
32
3C
18
16
B7
23
21
36
39
67
27
75
B3
E9
F2
A7
1D
19
29
D5
27
4F
B0
1C
15
AE
F1
20
28
2D
1A
06
6B
BB
0F
12
99
43
E5
58
4E
4F
12
74
6B
FA
1F
16
7E
19
57
5A
71
E7
44
B4
74
F1
80
2B
B2
21
4B
25
3D
4D
2C
39
27
37
69
04
5E
49
65
EF
05
60
0B
C1
C4
23
59
4A
1E
AE
C3
41
2F
40
D5
95
11
5F
EB
89
72
C6
6D
25
1F
09
76
0A
C4
27
1A
10
53
91
7D
3C
08
65
5B
1E
1D
15
5D
C4
1F
B8
70
08
07
01
11
D7
7C
7B
3E
45
2A
65
BB
46
49
FE
D2
81
1C
3D
39
3B
28
44
1E
37
7A
6A
20
AE
66
3A
13
2F
45
08
57
4E
C9
6D
2F
58
76
5E
CD
0B
46
30
78
7F
20
2D
43
16
E6
55
C2
35
93
10
BD
84
05
CE
4E
DF
5B
43
34
6C
5A
3A
6E
2D
6E
2A
17
DD
0A
16
F1
36
02
EB
02
49
26
41
67
8B
66
17
6E
3A
2F
1F
CC
DD
7E
35
1B
1C
93
85
F2
A8
E1
20
06
FB
70
17
04
E6
17
59
30
7E
37
42
A4
9B
44
43
1C
77
A1
C7
F0
5E
FC
59
12
9B
6E
85
0F
FB
9C
4B
7B
1E
D6
7E
ED
26
6C
9B
1A
27
7E
70
74
1E
31
31
B5
2B
CB
2D
34
3A
47
D1
45
0C
CF
52
39
48
2E
0C
14
04
6D
29
13
30
E3
07
3F
68
93
32
39
72
B3
77
7E
0D
35
C6
2B
7B
D1
D7
15
51
8C
9F
61
6F
4E
56
62
0F
46
0F
36
6B
BC
8F
72
54
12
49
26
0B
BE
2F
1A
4B
9C
B5
23
A4
6F
9C
14
53
6B
04
E3
ED
23
AE
5A
85
5A
64
DD
5A
A7
26
52
23
0B
64
16
74
27
52
84
DA
29
50
01
C4
43
08
10
0A
23
7B
5E
D2
7A
3C
63
59
47
E2
83
72
33
11
D3
87
6B
6B
1A
14
34
1A
3B
56
3D
3A
2C
40
4F
E6
42
16
74
C2
32
E1
47
7E
61
8B
73
46
1E
4C
43
68
9C
4A
A0
1C
60
34
A9
18
2E
A9
13
11
EC
F1
1A
08
39
86
AC
94
76
64
33
10
2B
A2
4E
09
0F
63
9E
4B
71
A4
4B
2E
49
04
8C
88
F0
4D
B1
24
16
7A
3C
6E
35
52
1C
1A
2C
05
6F
41
15
77
76
2B
7F
E8
0B
7D
7A
22
17
DC
18
58
74
6E
4B
68
33
2E
F3
31
55
63
E8
56
1A
EC
36
52
1D
6C
30
11
06
49
37
38
19
BF
3B
59
0F
FC
42
A1
67
A0
1E
72
55
9C
3A
19
11
81
60
44
F3
49
5C
3E
EB
40
7A
59
22
8D
77
D4
69
C2
1C
FA
1F
70
C0
28
78
50
3E
9B
05
0C
54
0A
BD
40
16
44
B0
6C
86
A5
52
E2
76
79
5A
6F
19
62
40
DE
8F
59
55
32
0E
E0
58
4E
34
79
45
D0
41
75
D0
F1
1A
51
F5
2D
1D
05
17
43
76
23
1D
FE
F5
4E
BE
B3
5C
D1
D8
18
72
97
D9
51
48
8C
75
82
08
5F
68
55
3F
40
ED
69
9B
16
69
6D
97
7D
A8
92
F4
5B
3B
42
D4
27
6B
59
1F
7F
FC
82
64
32
7C
55
26
1D
0D
17
FF
54
1F
22
DD
45
39
7E
3C
30
34
DC
33
37
46
97
37
46
98
51
7D
1E
4F
86
5F
17
30
1C
57
BA
6A
2F
61
58
34
61
36
B8
AD
D0
A7
6B
5B
27
25
1D
D3
60
0C
6B
BF
DE
24
76
1A
57
67
B9
71
69
63
55
E8
44
12
0F
15
78
8C
73
D0
2E
A2
0F
65
26
1F
9C
B1
4E
38
3A
79
14
11
0C
5E
53
D7
A8
5F
60
22
13
4C
BC
04
05
FE
D6
10
02
23
7B
6A
56
5D
D9
8B
AF
5B
01
37
C2
38
3A
9B
49
75
C1
C0
13
67
27
8C
7B
E3
B8
66
A2
6D
17
1B
C5
3A
43
30
05
83
E5
4C
66
D1
46
8D
E9
79
13
3E
B3
58
04
3E
60
45
66
C4
49
B5
22
C0
3C
3C
64
6F
52
74
30
0D
19
04
9B
7D
20
CF
32
F3
0A
04
C8
E3
29
59
23
7E
F9
5E
83
02
6D
DA
6F
2A
BF
9E
7E
DB
7A
0A
95
7D
40
64
B7
06
76
04
A8
14
CB
B0
4F
5C
F8
66
EF
45
2B
B9
2A
BE
E9
14
10
DE
7A
70
AE
6E
39
91
4D
2C
29
3B
04
4E
B2
04
7D
1A
51
B4
1D
40
B4
49
AE
DD
71
B4
1E
75
42
D8
04
36
5C
4F
CF
43
3B
C4
08
9F
31
23
E9
E0
3A
78
48
82
25
74
5F
09
87
69
47
97
4D
D4
67
54
8E
4B
69
36
94
21
B4
78
2C
3E
14
79
C3
3D
73
21
05
B9
19
6F
74
CD
F2
85
81
47
0B
B6
56
AA
8A
72
34
41
03
60
06
77
08
80
27
3E
4A
32
E5
C7
E0
29
CB
4C
6D
84
50
34
4E
31
3D
85
A7
C4
6C
3C
40
53
D9
69
98
36
AE
45
13
65
2B
0F
40
72
41
22
4D
2E
2F
BE
D2
A8
5C
E6
E2
7C
7C
4F
AA
D2
18
CD
88
C4
31
6F
20
E0
42
05
2A
4B
05
22
CF
60
A6
23
3F
A2
19
96
92
EB
73
7C
37
12
69
B4
71
04
0E
27
2D
4B
B7
02
87
9E
24
03
61
40
29
39
2E
2E
CA
DD
34
35
B6
3F
57
8C
16
F9
5A
32
3D
3B
CA
6F
34
2F
1E
F4
07
DD
40
51
F0
26
49
0E
C3
F4
4C
C2
07
D4
C2
28
15
97
72
4C
0F
1A
36
7E
6F
C2
2B
93
05
6D
1D
8F
35
A5
61
AD
5D
62
C4
26
19
5A
53
42
AE
51
40
86
53
6F
48
79
3E
2E
F6
65
34
F4
32
AA
02
67
27
29
30
D4
50
62
57
68
B0
1F
53
E0
09
54
69
47
3C
77
CB
A1
FB
8F
E3
58
AB
82
1C
28
74
38
59
49
9E
A3
86
50
D6
E9
15
5C
6B
5B
4F
B2
B2
4B
01
BE
3E
D4
D5
E4
62
44
AD
73
3A
37
AB
1A
D0
D8
95
60
C1
11
0A
6F
60
C6
41
33
F9
7B
7E
F1
0E
CF
15
03
3E
79
51
1C
60
28
4D
5D
40
4E
01
53
07
D7
B5
72
67
3E
9B
4B
49
2B
31
EE
2F
C5
05
7C
34
3F
40
6B
45
F6
9D
74
19
04
E0
3D
FA
79
F1
DA
F8
46
11
39
09
BE
37
BF
02
4C
4A
3E
A7
4B
54
1E
61
BD
7C
60
31
0D
58
24
08
F8
F6
53
C2
72
2E
EC
3C
A1
6A
4B
CF
01
81
63
6C
2A
1C
E9
7C
F6
2F
0F
C4
5F
F6
B7
75
6D
37
0B
72
1C
68
4E
3C
4C
72
2C
9F
A9
D5
31
71
D6
2F
EC
40
30
BD
15
9A
36
53
68
C0
5C
13
76
20
FA
4D
6E
11
41
66
48
8E
A2
2F
F0
50
7D
49
6C
14
89
33
4F
4A
50
44
5F
73
64
58
F2
61
FC
93
BB
1B
89
58
75
10
63
C4
24
0C
11
3C
76
6C
73
30
60
A3
5E
4D
8C
66
6C
30
8B
6C
27
65
BA
A9
06
68
05
24
06
14
47
6E
A1
71
21
69
34
11
6F
52
2D
36
54
30
CE
52
38
32
73
9C
09
8D
71
43
C4
44
7E
7E
1A
30
20
DD
41
79
16
39
BE
FA
5F
1F
6D
5C
2A
D9
0B
19
DD
86
3E
2D
9F
FE
E5
3B
03
4D
6D
3F
F6
47
3A
69
1E
2D
2D
15
B6
0C
08
58
7A
78
AC
F5
77
2B
95
FD
5F
2F
42
38
5D
67
5C
38
27
E0
B1
8B
74
91
84
97
61
17
4C
24
3C
71
4B
E9
65
74
D1
04
5D
AF
01
B2
2C
C6
0B
77
6D
F7
9C
65
87
CC
50
11
0C
56
42
77
51
2F
2E
4C
7D
D8
27
EC
7C
D3
EA
C6
5E
C1
E0
70
6A
50
79
58
0F
4B
40
4A
77
E2
4B
4D
59
13
BA
67
6A
0B
2D
1C
C3
E3
26
F3
34
6B
66
3A
0A
D7
2C
73
04
53
77
D1
79
BD
79
07
1F
DA
4B
11
06
44
8A
DB
52
18
5A
0F
FD
1D
57
67
A3
34
A8
CF
4A
8B
57
F9
54
3F
41
68
F3
10
3C
33
16
22
13
11
A9
B0
7F
11
4F
6B
9E
64
77
49
30
C2
81
60
37
F7
34
76
F0
0E
13
0E
1A
4F
77
22
F4
5D
74
9D
81
2B
F3
7E
09
9E
DF
CD
C4
F2
93
3C
74
33
56
10
31
6A
35
0A
23
13
75
45
CF
02
E5
03
EA
06
C0
77
F8
47
63
89
30
78
2D
82
6C
1B
D6
BF
15
43
76
2C
D0
03
7E
4B
7C
1C
30
E9
0D
18
0F
0E
85
02
C9
04
10
C6
3C
2B
34
33
C7
42
AA
46
58
6B
C9
5D
94
A9
49
01
BD
33
0B
05
C3
EE
B9
82
5F
87
44
09
63
3F
DB
3D
68
08
C2
81
C4
71
0E
43
90
58
21
08
5A
16
21
42
1D
6C
28
56
51
1D
9A
26
AB
3C
33
B0
69
24
07
10
73
27
95
14
63
A8
5A
A5
92
A3
A1
1E
F0
2B
D3
37
42
5F
15
7F
48
0D
B6
5E
AF
8B
94
2F
B1
04
DC
68
1C
C8
3D
64
67
46
05
6C
1E
AC
D2
1D
9C
D7
DA
24
3E
65
B5
12
68
BB
C4
9C
41
02
63
66
DB
23
51
7B
44
AF
17
7A
B7
E0
1D
39
F6
0B
59
34
29
0C
57
AE
7E
2B
78
3C
2D
BF
21
77
B2
59
4B
AE
09
8D
20
E3
24
0E
0C
44
91
B6
61
12
BB
4E
A3
5C
E0
21
70
6F
5A
22
BA
36
3C
0F
AC
E9
2E
DB
FB
57
5C
5E
26
1E
8F
FA
3A
3F
5D
42
A5
36
EE
12
25
6D
3A
3B
7F
6E
56
55
58
5E
BC
71
4E
4C
A7
4B
7C
67
CF
76
15
16
38
E1
45
40
2D
0A
17
16
4C
6E
2C
54
E6
79
C2
79
77
61
D6
86
D3
0A
24
88
A3
E7
E3
54
2F
5A
2A
67
AD
39
62
C1
C7
12
34
2D
56
77
B3
7E
E3
89
51
70
08
10
EB
44
30
3E
20
61
3A
56
0F
B3
28
B6
7B
68
5C
2F
6F
33
05
51
68
3E
07
7D
CC
44
6D
02
D5
29
95
4F
C6
24
40
5A
A0
F1
AB
19
9C
01
3C
1A
1D
62
61
6F
39
3D
05
44
AF
0B
39
86
34
6B
85
58
CC
93
06
43
43
4E
90
19
7F
4B
7C
1A
27
37
35
37
D1
92
BD
83
ED
49
0C
57
76
66
7A
64
5C
E9
8A
E4
3C
16
5A
50
50
48
16
35
9C
64
3B
08
9B
63
3C
69
8C
21
E8
D6
C5
5C
3B
2C
92
13
7E
42
A9
36
5D
35
DB
58
57
2E
73
77
40
96
D4
71
B4
3B
C7
28
8A
5E
D9
57
72
6C
22
0D
AE
E6
31
59
C6
66
A9
5B
27
17
52
56
1E
B2
40
76
47
70
EE
97
67
75
0C
47
33
76
11
B6
79
13
BB
07
B6
50
94
5C
3B
61
2F
03
06
34
3C
10
C7
D0
5E
2C
68
2B
17
1F
20
36
75
E0
1A
89
2F
26
29
24
4C
D3
72
76
D5
1D
53
09
69
44
63
39
97
A2
46
4F
18
2F
BE
29
31
12
48
66
16
6C
C3
9D
77
6A
35
33
09
07
4C
BB
E3
3C
52
96
C0
55
45
DA
FB
6D
CF
EB
C0
B4
4C
2C
81
C0
72
29
3B
09
2E
0E
AB
14
74
C7
2A
31
48
10
1B
A8
79
19
2E
33
9A
05
E6
23
31
83
76
8D
3D
70
1E
10
4F
6B
F7
69
7C
2B
36
01
45
25
F1
DA
43
5E
E9
51
C9
7A
74
69
F6
50
0A
03
6A
20
31
91
C8
A5
84
74
6B
BE
52
2A
7E
96
03
35
D9
97
14
2F
92
4D
77
F3
41
40
16
18
65
0D
11
D6
C3
A8
D9
51
75
5F
44
74
5D
85
06
5F
3F
0D
7F
27
8D
C7
03
D2
3C
8D
D1
91
C7
A4
7E
84
2A
56
5E
E0
26
38
98
48
75
54
23
02
03
24
98
2D
56
71
58
88
37
5D
F2
56
41
82
33
36
BE
E2
67
6F
2A
22
0E
7C
B6
25
A2
25
85
D6
5E
46
28
FA
A4
1C
06
08
47
EF
3C
0D
3D
28
89
68
74
01
05
5E
6E
BE
7A
19
A7
4A
54
E1
4E
B9
02
4B
03
21
92
0E
59
35
28
76
27
9E
21
D2
B4
C7
FA
21
6E
13
7E
2B
B4
6F
1E
0B
35
32
E6
38
B7
65
92
23
45
2F
1D
06
E8
70
97
14
28
EA
05
FB
35
4D
41
4B
86
7C
67
6F
2B
05
50
3C
DA
33
AB
FC
F4
4B
44
16
35
27
2C
1D
1D
A6
0B
13
6C
DC
3B
DB
FA
41
1E
0E
21
A5
3A
CA
A4
07
28
1F
97
85
60
F4
6A
8D
7E
56
49
F4
1C
6B
B1
FF
20
D2
D7
52
CF
CA
09
04
69
48
6F
3C
ED
30
BB
88
60
34
87
32
1B
35
80
78
D3
E9
64
F9
5A
54
FC
04
B5
66
9E
03
76
56
62
8F
6A
E9
0E
33
55
0F
55
6C
DC
02
D1
05
4C
B9
1E
1F
21
23
28
06
4C
71
75
7E
3E
04
F8
C3
0E
FA
A4
65
0A
22
D1
53
01
38
DC
3D
7C
2F
C4
C8
97
4B
6F
1B
4D
6A
50
67
06
02
F2
60
36
5B
56
2C
F5
03
F2
B4
94
70
A9
61
3D
A7
7D
99
38
4A
75
4C
04
FE
4E
DA
63
3E
D1
12
B8
AF
35
0F
B8
82
F3
7E
94
98
21
27
43
FC
1F
E9
B9
15
0B
EE
04
D9
5B
29
14
17
1B
12
07
8F
AC
04
E2
47
5B
5B
28
D7
0A
E2
77
4D
F1
5A
AD
AB
23
B4
68
C5
73
FC
93
C5
56
1E
DB
33
0E
EB
A7
A5
DF
B3
7E
5C
F0
9A
94
3C
9B
AB
22
48
1A
C6
75
05
44
76
1A
B2
6C
04
0E
A1
68
35
6E
CE
5E
50
3E
85
2F
8E
79
24
AC
C1
AC
74
AD
50
73
3D
3A
4A
3C
B1
2A
6B
66
D4
CA
CD
3C
14
79
18
78
33
6E
7E
91
2D
BC
02
60
81
B7
49
C7
45
3A
6C
8E
68
20
09
3B
61
90
62
1F
8A
4D
3B
A2
05
67
03
B5
49
6E
04
E7
A4
F8
22
7D
5B
02
51
0E
77
5E
06
90
66
70
47
96
14
FF
0D
B5
16
11
27
C5
DC
1F
37
23
13
08
54
8D
91
4C
57
94
41
22
4A
9F
64
08
A6
BA
07
C4
3A
21
66
A9
2A
5B
42
C3
74
15
5A
C3
DA
14
98
6C
FE
29
09
01
15
07
38
0E
32
5B
4D
42
05
02
07
5C
C4
A6
6C
06
C1
08
54
3F
52
90
15
6D
1A
F0
CF
64
2F
F0
EA
4C
0B
4C
76
7E
23
5C
F1
43
22
69
EF
0D
39
25
57
76
94
A6
AB
7F
4B
09
71
18
F1
56
26
77
2B
81
C7
43
DC
E8
16
3F
35
88
A9
3E
11
55
18
30
BC
82
26
A8
42
AA
79
4C
34
6B
69
62
04
37
B4
C2
98
34
4E
A0
F1
72
6A
EF
6A
3C
BA
5A
81
66
8C
82
5E
10
FD
59
F1
46
5F
2C
41
61
64
A9
CA
56
12
94
D1
76
E9
30
6A
4D
A1
B6
7C
1F
0E
18
5B
B2
D8
2B
38
1A
19
56
5F
33
16
4C
05
FC
BA
16
66
15
55
68
F1
E6
CE
67
19
6B
19
DD
92
28
07
30
AA
1F
05
4D
26
06
EF
5F
64
A4
05
1B
A3
0D
79
2B
E6
16
D8
35
AD
A7
12
69
2A
C2
E9
53
E8
2B
76
DD
44
28
A8
51
B3
70
24
83
64
34
9D
40
01
0F
52
F7
8E
22
AC
AA
4E
F5
2B
95
17
31
78
59
3D
4F
58
E7
40
AC
71
4F
D7
AE
B2
6C
CF
4A
1A
53
96
19
14
08
5C
21
87
7A
D3
FB
69
02
C6
48
31
44
19
46
26
18
5B
E2
99
50
E3
3B
3F
CB
5F
15
22
8C
0A
6C
53
46
50
3B
7C
B4
61
29
34
68
32
EF
B1
C1
4F
95
BB
2E
5C
51
BB
06
6D
6E
62
0F
6E
4E
60
B2
68
7E
E3
87
9C
CD
12
81
4F
3C
0A
0B
54
0C
D2
63
E0
EA
3C
38
EE
3F
63
C5
54
1B
2F
27
31
2F
11
7D
47
9C
06
22
40
3F
82
68
76
1E
31
35
EF
D3
BD
04
87
20
AE
67
C2
B3
4D
9A
2F
44
54
C5
DB
0A
9A
3D
AD
06
6E
78
AB
04
8A
6D
74
4D
91
43
7B
0B
18
2F
D5
4D
F0
A3
D5
47
05
5A
7D
93
15
53
56
64
9E
66
3A
F2
5D
48
05
73
74
B5
42
E5
4C
0A
68
48
B9
CE
55
81
4F
48
92
10
FD
D8
7F
06
65
0B
E5
18
19
35
D3
24
25
8E
53
2D
55
EA
04
89
82
5B
0E
FE
2C
F8
DF
9D
12
1B
13
D8
04
57
54
E5
E7
72
66
50
28
05
C2
41
E5
B5
38
EF
7A
3F
38
2D
3F
11
5E
CD
C1
03
23
AF
4B
20
52
F7
49
A5
C0
07
65
67
5C
31
5D
78
65
35
24
0F
10
18
13
63
1A
52
67
5D
5C
B8
4C
E0
37
06
A0
5D
12
0A
1A
B6
48
54
75
CE
EB
02
0B
09
69
67
BC
14
BD
44
90
50
EA
36
04
7E
03
10
05
5C
D0
1A
50
51
F3
25
C1
23
2A
F8
25
81
6F
61
F8
75
B9
41
C1
30
2F
C0
11
1F
0B
CE
11
0B
0A
86
E8
10
36
0A
78
42
72
4A
A6
21
8C
11
0E
25
FA
18
2F
25
68
DA
1C
6E
44
42
72
FE
23
03
73
ED
25
9D
1F
4D
3E
44
54
44
7D
51
07
3D
79
3B
2C
8E
30
2E
8C
79
77
83
56
33
7E
28
A4
21
29
70
91
42
51
74
12
06
41
9A
22
FD
CB
4E
C1
0D
F4
38
51
5B
4C
3F
4D
0D
3B
C5
4A
1E
34
54
33
67
51
57
31
37
C9
38
81
70
CE
A2
78
A7
2F
4A
92
1F
98
9A
AE
7B
63
6E
61
50
63
7B
47
05
40
25
20
29
42
04
6D
18
75
47
08
55
95
11
0D
E0
16
0D
72
DF
45
3B
70
40
70
0E
99
37
34
EA
41
84
41
28
5E
10
E1
C6
81
40
16
36
41
69
04
43
66
17
52
28
48
39
55
69
58
35
0F
02
3E
52
35
1F
20
BC
C0
8D
4C
2F
C0
5D
7A
96
0A
B2
3A
7D
6A
1D
39
75
9B
71
0C
13
2B
06
51
8C
48
41
32
44
C4
7B
38
75
77
26
2C
50
5D
67
EA
17
43
E3
25
3C
4F
1A
3F
47
B6
DB
16
60
44
D2
3A
FB
10
97
66
2E
57
F1
3D
76
95
F6
2F
68
23
D7
31
14
57
12
C5
82
42
73
46
0C
40
88
31
57
54
60
0C
09
62
2C
57
63
0A
55
D6
79
FD
1B
47
35
5F
75
09
03
1B
6E
CB
47
2D
63
11
11
F1
02
40
2B
70
94
2B
3E
31
D5
4D
75
30
A6
40
35
BB
70
EE
B3
2C
B3
7D
5F
8D
07
08
0E
1F
2E
74
5C
4A
19
ED
6F
67
69
0F
46
06
5F
26
1F
C9
D6
3D
6D
E5
DC
08
49
55
0F
3C
61
50
29
A6
A1
4E
FF
54
31
15
F3
35
88
76
7E
06
7F
E0
58
90
48
F0
44
67
8E
02
58
43
22
D8
0E
22
0D
06
68
1C
1E
69
3B
7F
33
FF
22
07
D3
86
37
6D
40
3B
66
3C
60
88
E6
C0
36
90
BC
71
FC
07
19
8D
7D
A1
09
BC
12
C0
0E
47
C9
54
62
A5
74
35
32
